<?xml version="1.0"?>
<opencv_storage>
<stage4>
  <maxWeakCount>5</maxWeakCount>
  <stageThreshold>-1.1651618480682373e+00</stageThreshold>
  <weakClassifiers>
    <_>
      <internalNodes>
        0 -1 988232 -1.1951029300689697e-02</internalNodes>
      <leafValues>
        6.4390754699707031e-01 -5.3397214412689209e-01</leafValues></_>
    <_>
      <internalNodes>
        0 -1 666014 -8.4620658308267593e-03</internalNodes>
      <leafValues>
        3.5793694853782654e-01 -9.4311273097991943e-01</leafValues></_>
    <_>
      <internalNodes>
        0 -1 1906672 3.6043045111000538e-03</internalNodes>
      <leafValues>
        -7.0615935325622559e-01 3.6192673444747925e-01</leafValues></_>
    <_>
      <internalNodes>
        0 -1 2020861 -2.5239001959562302e-02</internalNodes>
      <leafValues>
        3.1638059020042419e-01 -9.3563210964202881e-01</leafValues></_>
    <_>
      <internalNodes>
        0 -1 70824 1.7069917172193527e-02</internalNodes>
      <leafValues>
        -5.2521491050720215e-01 6.2883466482162476e-01</leafValues></_></weakClassifiers></stage4>
</opencv_storage>
